/**
  ******************************************************************************
  * @file    network_data_params.c
  * @author  AST Embedded Analytics Research Platform
  * @date    2025-12-11T15:07:41-0800
  * @brief   AI Tool Automatic Code Generator for Embedded NN computing
  ******************************************************************************
  * Copyright (c) 2025 STMicroelectronics.
  * All rights reserved.
  *
  * This software is licensed under terms that can be found in the LICENSE file
  * in the root directory of this software component.
  * If no LICENSE file comes with this software, it is provided AS-IS.
  ******************************************************************************
  */

#include "network_data_params.h"


/**  Activations Section  ****************************************************/
ai_handle g_network_activations_table[1 + 2] = {
  AI_HANDLE_PTR(AI_MAGIC_MARKER),
  AI_HANDLE_PTR(NULL),
  AI_HANDLE_PTR(AI_MAGIC_MARKER),
};




/**  Weights Section  ********************************************************/
AI_ALIGNED(32)
const ai_u64 s_network_weights_array_u64[1689] = {
  0x3e7e7f343da7f511U, 0x3ce3874b3e64ebadU, 0x3d8d6ae8bdfe9397U, 0x3ead2d903e9b02b2U,
  0x3e81c1fc3ea96d59U, 0xbdf2cb5a3d892c7dU, 0x3e01e8eabe65218fU, 0x3c32f2683e3e3d07U,
  0xbe936c7abc8afb64U, 0x3e8d8ae5be79afe4U, 0xbea8d1523e774ab7U, 0x3d5fdc08be9d062cU,
  0x3e092e153d69c07bU, 0x3e9c774c3dd4d552U, 0x3e8c39143e04c7fbU, 0xbdb83397beb5e740U,
  0xbe1d834ebe38ebc2U, 0xbe5a9aa33d7a7bb6U, 0xbe9d9c3dbd0ba774U, 0xbea916e6ba86bdf2U,
  0xbe8f59563e522a4cU, 0x3eea5aa03e9f8111U, 0xbd00a6963e22b23bU, 0x3e4ddd033dfc8355U,
  0xbe2709da3e21510bU, 0xbd1420b9be18d80fU, 0x3e8a5730bd238989U, 0x3d62feecbd42aa49U,
  0xbd2b919abd2076f9U, 0x3d717dfa3d55897aU, 0xbd11d2ac3d959c7fU, 0x3d42a3bf3cfabf6dU,
  0x3da874f43e3249bdU, 0xbe09fd9bbe95c8d8U, 0x3c2f7e60be5917c0U, 0x3e0a12a93e06c03eU,
  0x3c2bb7cd3da1d8d8U, 0x3d8539343b69bae8U, 0x3e37d8fe3ccc4debU, 0xbd4efad3bd91730cU,
  0xbdde97953e53ac58U, 0x3e472c90bbe69e76U, 0x3e2266ba3e1f05d3U, 0xbb673632bc0c812eU,
  0xbe037b603e3511f7U, 0x3e6a4606be034319U, 0xbe1d60183e08ba07U, 0xbe1392803d7a5323U,
  0x3b9870e6bdd5a9e7U, 0xbe35679dbe97077aU, 0xbd7617ffbc8fc7bdU, 0xbe96d1a23de742f0U,
  0xbe59daa13cc8fd84U, 0x3e64ddb2bdfbd423U, 0x3ccb2a15bc933dceU, 0x3e2b2229bd42a9f1U,
  0xbda9b50cbdf1fbf6U, 0x3e310b84be1f47cdU, 0x3d83793c3d3011cfU, 0x3d59568fbc096ddeU,
  0xbd14a8a23dc90cbcU, 0x39cbe243be284d96U, 0xbe4684613defa6a6U, 0x3db9cbf3be5883d6U,
  0x3e018c20be99e833U, 0xbd396e88be834ba8U, 0x3e6ee16b3d81d57bU, 0xbe3f2bd1be6c8029U,
  0xbe49039b3de5bef4U, 0x3e5254893d2d12ceU, 0xbde9ed32be07a538U, 0xbd8f7fe8be333e3eU,
  0x3d7fbf0dbe364cbaU, 0xbd6ed2713e15dd06U, 0x3d9252613e9148d9U, 0x3d31ee973e6f1fd6U,
  0xbdffce2bbe1d73ecU, 0x3d7e0a03bc4ea453U, 0x3e4e32bf3d43de54U, 0x3de31c403daf6184U,
  0x3e133673bdbef37fU, 0xbcd062823e0a8d71U, 0xbd278994be57d531U, 0x3d1a07d63d9c699bU,
  0x3d62b3c23c1252b8U, 0x3c57f7ac3d25b15bU, 0xbe4536543d962430U, 0xbcbf560e3de0c11bU,
  0xbe0d0fb43e0d8107U, 0xbe1da1a53e0425d6U, 0x3d8c0dd2bd9a3f03U, 0x3dab68f93c5c4203U,
  0x3dff20463de02b7fU, 0xbe177fe33d2c7451U, 0x3d1c484dbdc16e92U, 0xbd8f75da3d8b2daeU,
  0x3e3fd929be563c29U, 0xbe0b37d9bd062215U, 0xbdd01bf0be411afdU, 0x3e14a36abbdae105U,
  0x3e1112bebde305b4U, 0x3d2455703ce4a454U, 0x3de16f173e4a73d3U, 0x3d4708e23da66c68U,
  0xbe5411a1bd4165eeU, 0x3e06a1f13d62dd8cU, 0x3d643770be1b415bU, 0xbe5782953e3e5a7aU,
  0x3de5e4e73e592fb0U, 0xbe08e9693c402d01U, 0xbe85cc39be2ad8beU, 0xbe02103abe198bf3U,
  0xbda3a71dbe4ddc06U, 0xbe83a1c1bebcd81aU, 0xbc6ccab83c80a6b8U, 0xbe606143bde60960U,
  0xbea70264bde1808dU, 0xbe831d17be571a93U, 0xbcfc35bd3ddda2ceU, 0xbcd95c47be59d205U,
  0xbe213382be736a9bU, 0x3d9e07bc3e227c95U, 0xbddbe08cbe3eedf9U, 0xbd908a09be9c5196U,
  0xbe78ff4e3cc63e85U, 0x3e204260be3cdb56U, 0x3c5ed494bd28b91eU, 0xbe70be9bbe64b28aU,
  0x3d5e0f803e3b3cc4U, 0xbd4349673e3bbf54U, 0x3e5bca7d3e6a047aU, 0x3dc50e05bdec12abU,
  0x3d351e0ebe8c2bdaU, 0xbecb17703da5b062U, 0xbc7475b93dfe786bU, 0x3d389f62be8868f1U,
  0xbec3301fbea27312U, 0xbe7e89703d365827U, 0x3d1aa85ebe12bbd8U, 0xbdf07a8bbe8704b3U,
  0x3e025cc33d08e53bU, 0x3ca65248bdb3a46eU, 0x3e1dd3833d573583U, 0x3d853e7cbe5d6952U,
  0xbda881f63cba06e8U, 0x3ddf7b98bc4b63e0U, 0x3e47e8b9be0e2c5cU, 0xbc87c659bda452deU,
  0x3df7b579bdedde71U, 0x3da7808e3e3258ecU, 0x3e7d56bbbd975aa5U, 0xbcb17967bc3f495fU,
  0xbec1d21bbece1a3fU, 0xbe5989afbe24e1faU, 0x3e50e679bdd21ecfU, 0xbe8aa86bbee78899U,
  0xbe8e92e5be0e9d01U, 0x3e0a2a73bd943077U, 0xbd902094be05b2a2U, 0xbe2660b1be8c4d64U,
  0x3d28e0febd94e0d7U, 0xbc2336253d1c11f4U, 0xbd2bbbab3cf31942U, 0xbe32fbb6be74a9aaU,
  0x3e241e203e2629f8U, 0x3e3f4cd53e7f1f55U, 0x3dbbca9abd2174dfU, 0xbde7d6a8be48ed1eU,
  0x3c88b4dbbd8ca1e8U, 0x3d00a6ea3db047ebU, 0x3ddcea273dd6e4bdU, 0x3e4f20b9be0b2715U,
  0xbad102633e380de8U, 0xbd562f543e8850c1U, 0x3e0852693e4691f9U, 0x3da20a7d3d3051ffU,
  0xbda3ae863e3369b8U, 0xbe2dc8df3e126c90U, 0x3d9372da3e881e5aU, 0x3e3bca9cbd9987f2U,
  0xbe4c45d53d9e1411U, 0x3d55a4df3c4ef7b6U, 0xbdc32c033e73c126U, 0xbd744b90be3c3729U,
  0x3d507c3bbe21a84aU, 0x3d3d63e73de63133U, 0xbe185e00bcec670eU, 0x3e55ceccbd7118fdU,
  0xbe29f2c8be11e267U, 0xbd876bf5bdd80122U, 0x3db4d5a63e414bbeU, 0xbe26602ebb95c45aU,
  0x3d9f05613e635522U, 0xbe0d305cbe321e8cU, 0xbcc9ef0c3d087d15U, 0x3e7977373e353df5U,
  0x3ce47a373df858a6U, 0x3e19e37d3e3783afU, 0x3e547c3ebe6c8990U, 0x3ded41b63e357c95U,
  0x3e2349473e4c1eb8U, 0x3e4fc418bdceec53U, 0xbc9c6bc33e272b29U, 0x3e34ed8b3e010e9aU,
  0x3c80ebd33e1e1690U, 0x3e6a93de3e5f4fceU, 0x3e24f1abbe12171dU, 0x3e45b18abcce1819U,
  0x3d3d006ebdef91a8U, 0x3e857df73e8e8abbU, 0x3db3709cbd84dba4U, 0x3d472f793d001509U,
  0x3e1e53a53e4955dcU, 0xbdae6a0dbe1b961fU, 0xbd1637c5bd5d31f1U, 0xbe0014943e40ffb3U,
  0x3db99cbb3e392ce3U, 0xbe84b402be7dcbf7U, 0x3da81fed3dd475e2U, 0xbd37dc1ebcfc62d3U,
  0x3de8ef45be12818cU, 0xbdf1bb613e4d4c87U, 0xbe2c97be3e58c8f8U, 0xbb416cb7bdb72a0dU,
  0x3c9d79863e0dd68fU, 0x3d978452be6dadd2U, 0x3e59664c3e071e3dU, 0x3e25a1613e26a59fU,
  0x3d5dfdda3e4b6181U, 0xbd2e0497bcd074b6U, 0x3e2fcef73d34adf8U, 0xbde628473e53d5a7U,
  0x3c4ca24d3e3ff9b3U, 0xbdb4945b3cdd5077U, 0x3dc244ea3d7b9d80U, 0x3e60e102be62281bU,
  0xbd57e846bd360aceU, 0x3e16b10d3e38117dU, 0xbd839124be6f9215U, 0x3d2b463f3ddf85e4U,
  0x3dc46cf13ba45722U, 0x3cf6619bbd97ced2U, 0xbe24009cbe248fd6U, 0x3db97f9b3e651278U,
  0x3d5ca376be4f7298U, 0xbe7052443e04dfd9U, 0x3c9aadfabe8594baU, 0xbea2eed83e3f4d6bU,
  0x3e0f8bd63dafefd4U, 0x3e00b4f4be7aac8aU, 0xbd1ec2493d546936U, 0x3d81f529bdd022e9U,
  0x3d1b65843dcce199U, 0xbd11a7ef3e605e36U, 0xbe06b06b3d69bca6U, 0xbbd0b1003de38165U,
  0xbe5d2d62be4bafa6U, 0x3e81ef203e480fecU, 0xbe3983aa3dcf1062U, 0x3d9e36d0be0d20cbU,
  0xbcfa6e2cbdf260d2U, 0x3dd87ec33e805d98U, 0xbd313f843d51fd7dU, 0x3daf1c633d5426d4U,
  0xbe112bf63d18ccc6U, 0xbde38c3d3e3e0be5U, 0x3dbdb9743e329afdU, 0x3ca1deb2bdbee559U,
  0xbacd41de3e20bef4U, 0x3e29c147be035c70U, 0x3de7d4173e4617a9U, 0x3e0c5b643e7218b3U,
  0x3e5f368a3dc95936U, 0x3cc05f6d3e7a52e9U, 0xbdb7d6a6bd3a2594U, 0x3bac47283dbd88cfU,
  0x3d6ae244bd16746eU, 0xbbfbf83d3d0426bfU, 0x3e3f1d1fbd89a0f8U, 0xbc13a9a93e2e52a9U,
  0xbe497fcabcf09de7U, 0xbe1964ac3e02d1c7U, 0x3e1459ab3ddd7ec0U, 0x3d9b1179be65d092U,
  0x3d98e7223d0681aeU, 0x3e6377973e4bd313U, 0x3cbabfc8be1cc540U, 0xbe47c6f23d818792U,
  0x3e1c80683e35d99fU, 0x3e51b4643db1c92dU, 0xbd47997d3e0778e8U, 0x3ca8acf8be315700U,
  0xbca6e8633dcbbbd4U, 0xbcfc22bf3e69f49eU, 0x3d810fb83da95633U, 0x3e6f382e3cbfea37U,
  0xbe3a8838bdaa7f08U, 0x3ddb7649bd24e1ddU, 0xbd3d9e98bd6a23beU, 0xbe28ef87bdfc0586U,
  0xbce719723e28fea3U, 0xbdbe22973db12211U, 0xbd27a61ebd95cf16U, 0x3d5dd19bbe2c888bU,
  0x3df6a6f83e530902U, 0x3d3a7b13bc9e99eaU, 0xbe425c93bdfed021U, 0x3e399bbb3de07c64U,
  0xbe53fde9be7b6f9cU, 0x3dcb9dc2be2d440bU, 0x3db5ead3be0a0fb3U, 0x3e52771cbea992e3U,
  0xbc1e6e67bde10f92U, 0xbd7122bf3def8de1U, 0x3d39fe033e84caafU, 0x3e3fc2d23d4beb57U,
  0xbc97eb3d3db55ddbU, 0x3df5c65b3d587e9aU, 0xbd278cd83e6c5ba9U, 0xbe22e0fcbe1b2477U,
  0xbc3327a23e447710U, 0x3dad1ffa3e422743U, 0xbd5f741e3cd65001U, 0xbd59782b3e3890c3U,
  0xbbd88cfcbdb3016bU, 0xbdf780a93e390025U, 0xbdfc9568be5deeadU, 0xbcf1d0ebbd834104U,
  0x3d18e06d3e2b54b1U, 0xbd913893bcf6ee91U, 0x3ca7bb6ebc82883fU, 0x3dfe33ef3d045684U,
  0xbe34b36a3e54f704U, 0x3db280a8be01937eU, 0xbb27e66abd5ad4e3U, 0x3e30b8e7bdde202eU,
  0x3e1ec9babde4768dU, 0xbd7a2f94be59251bU, 0x3e5fbbdbbe19357fU, 0x3de6f2d93e096c68U,
  0xba0c58aebd083057U, 0xbe6a9e1ebe068f12U, 0x3e0583c43df187b0U, 0xbd3560933d76fdebU,
  0xbe4ede09be77d713U, 0xbd18ff4f3e3fcdcaU, 0xbc7bed023c286443U, 0x3de45e36bcc45f61U,
  0xbd9d34653d90f9d9U, 0x3d017fe13dbb22f3U, 0x3e5244193d89e4f2U, 0x3d3db7fd3e42d831U,
  0x3daa10eebd16b65bU, 0x3c88b4893dc6c6c5U, 0xbc27e06abb8114b7U, 0x3d84190fbd2e3e20U,
  0xbd0f6af7bd813cfdU, 0x3d99538dbc3b8ba9U, 0xbc86bf43bd8fa976U, 0x3c0380833bf264d2U,
  0x3da7ad89bd8b3d8cU, 0x3dc8cbc0be11a5d2U, 0xbe85d04ebc99281eU, 0xbbfd4c05be06b5d0U,
  0xba05671f3d3bbf8aU, 0x3dba59473c8eea0cU, 0xbe1be8b93e4ab4d3U, 0xbcab52043e32494dU,
  0xbe7fe96bbd8de235U, 0x3cdd8a0ebdd37ee3U, 0xbe0d5a14bd0a06baU, 0xbddbbd9fbe42c9d0U,
  0xbe5d0a6fbd5948fcU, 0x3e0b496b3e211703U, 0x3de1fed0bdbac348U, 0xbe0e39c33e3aa3e5U,
  0xbe97fb393d2c6b78U, 0xbda6aff53cf5e38cU, 0xbda80840be1db06bU, 0x3d88af5fbe25548aU,
  0x3e12e71abd514e9dU, 0xbd9caf0c3cca4bd5U, 0x3daef785be0196d9U, 0x3ac41cdd3e4963c7U,
  0xbd018f16bd4b71e3U, 0xbd9f20cb3ccb2b96U, 0xbe3d061e3d121122U, 0xbdaca24ebcc74265U,
  0xbde79286bb770d60U, 0xbcfcb9e63e52a99aU, 0xbe3261233deaf343U, 0x3e039ac1bdc10dc2U,
  0xbcb96815be1ec530U, 0xbd85c430be22cb79U, 0x3e3c81393ed0517eU, 0xbdfee5983e75ea1fU,
  0x3e161a773e36a41bU, 0x3e2aa8b3be3ebf1bU, 0x3e0322dfbd196cbdU, 0xbe0152d4be1fe2cbU,
  0xbd98123cbd741c4cU, 0xbd7c45a73db80d79U, 0x3e86ad7a3e65ffd8U, 0xbd8c22ea3e0c7e09U,
  0xbdd3b3c9bb8cea12U, 0x3e27e22a3ded6604U, 0xbe82c7993d590404U, 0x3e4d09453e31120eU,
  0xbe6d69023d34855cU, 0x3e28e362be59a429U, 0x3d266a89bce96a4aU, 0x3e4ff52a3cf7bd72U,
  0xbe4fba03be59cdf0U, 0xbdeb3c643d80a3a3U, 0x3e292f8bbcc281d4U, 0xbe73ae10be4712a3U,
  0xbd9c3cbb3dafb019U, 0xbda25fba3dc2655cU, 0xbc98e13fbe32d640U, 0x3df6243f3dcca089U,
  0xbe0c068a3e1d63c2U, 0xbd834f693e340bd2U, 0x3e03ed11bde06e72U, 0x3e38d374be4c8c60U,
  0x3e8d445f3dd5c8acU, 0x3e2e4650be56bee8U, 0xbe858b13be9e53c9U, 0x3d990068be4ca70eU,
  0x3e10c4533e320d86U, 0x3dc714ecbdce8995U, 0x3d13e90b3da381f9U, 0xbd444f22bdbfdd95U,
  0x3ccdff663e08ca76U, 0x3e41b813bd82e6e1U, 0x3e5d03f63db3ef1eU, 0xba7d8e583e3702fbU,
  0xbdeedb5f3e3a3094U, 0xbe45ed1b3e23013bU, 0xbd2a15be3d5f4574U, 0x3d95fe123d41285cU,
  0x3d8dcd433e305a9fU, 0xbd205c9c3dc174eaU, 0x3e86793b3e811157U, 0x3dad98f23eac3e2dU,
  0xbd796d193e13d2d4U, 0x3cdc0f87be07639eU, 0xbd87ddebbd9d163dU, 0xbda07b3d3d3b8482U,
  0x3c9521b4bce84206U, 0xbe1bf13dbe0e87edU, 0x3e529a633e985da7U, 0xbc81d9733cb3bab1U,
  0xbbb930debd8a150cU, 0x3d8579bf3bcecdb2U, 0xbdf2e4d53e36c4a1U, 0xbdc72803bde2f1c4U,
  0xbe4aa9e2bde46a48U, 0xbc17293d3cdf7578U, 0x3d662b293e822b74U, 0x3d9e0dd6bde79ff2U,
  0x3e02356d3dd4d43fU, 0xbe688b9abe357175U, 0xbdc1b1903dd0e6abU, 0x3e1ecde73d90a1e8U,
  0x3e08d5973e12bd49U, 0xbd2ad7c4bddc4f39U, 0x3e4015083cfa8771U, 0x3e004d48be0cf808U,
  0xbcfc845dbe2b82fcU, 0x3b6d816dbe60a7ffU, 0xbe469dfc3dfee084U, 0xbd0b93b5bd582de8U,
  0x3e32a17ebc9328f4U, 0xbe1ecce23d1b343bU, 0x3e12fe9d3e4cad36U, 0xbdfd3b833decd2ebU,
  0xbe3421083cf4183fU, 0xbe03ba61bd163d20U, 0xbdedf4be3e41ff8fU, 0xbd7c53fcbc4a915dU,
  0x3c99bdfa3dfbf940U, 0x3e2d33de3dc24232U, 0x3e7abcf43dfadfe5U, 0xbe1b7fb0bbd039d2U,
  0x3df0b3583e3e861eU, 0xbe21abf33e1d697bU, 0x3e3443c9bdf51816U, 0x3e2721e0be09e118U,
  0xbd88b83cbd76501fU, 0x3ce804a13c407686U, 0xbd7159e33c8aa137U, 0xbe013ea53cfb71c7U,
  0x3df54bd63d9a78e1U, 0x3c961710bc95584bU, 0x3d506e3f3de2212dU, 0x3d3ef3e6be01a435U,
  0xbe2ce0903e4dcf3cU, 0xbd15f7e2bd88b08aU, 0xbdadbf3b3e6b4a73U, 0x3e30fa463e452681U,
  0x3ca324abbd131de6U, 0x3e10c1803e4c28cbU, 0x3d7c1d6b3e3b35d8U, 0x3dce2bcdbe297f90U,
  0xbe459bce3e4c286eU, 0x3c13186e3e14911fU, 0x3e71e0dc3ed31af6U, 0xbdc2284f3eacc150U,
  0x3d9015ebbe378cfcU, 0x3d8b102ebdd5a513U, 0xbe4ed71d3ddd4ce2U, 0x3d3f24523ccb05a7U,
  0x3c317aa63e11b133U, 0x3aa582bbbe0e46f5U, 0xbda13d323e48239fU, 0x3da7e3623e8d30f2U,
  0xbd6d93bd3e1a367aU, 0x3e20ee7a3d32f019U, 0x3daa54c9be287a30U, 0x3cf26aa4be07bc12U,
  0x3dd5dbc03e4e19efU, 0x3e3dccab3dbe0d6fU, 0x3e846dc23eb3a11aU, 0xbe3d28f23e8063c9U,
  0x3e64703e3d3ad313U, 0xbe44953ebd48d1f4U, 0xbe8dfbb23e389323U, 0xbe2108663a14de85U,
  0xbe5d45023de8a744U, 0xbd8caae43c13e782U, 0xbde505b83ebfc670U, 0x3dd190d83ea7a7a7U,
  0x3e28b1153db55d04U, 0x3e15f9733d600648U, 0x3db996d73d80467fU, 0x3e56a1c9bd64e986U,
  0xbe37f65dbb248ea8U, 0xbd522a92bdd08893U, 0x3e5ff7c93eaf2323U, 0xbdfb89fe3dd641a2U,
  0x3e4e53f43ba30eaeU, 0x3dde6f6a3de4147fU, 0xbdbf14843d086fd4U, 0x3e0e89a33c32451aU,
  0xbd7f5787bcbeeee3U, 0x3d8154e53dd93cd3U, 0xbe1cfcebbe11e83bU, 0xbca8c40cbd2d6309U,
  0x3e05b8abbd9836e2U, 0xbddd2ea3bdb5a481U, 0xbd3f091bbd85d80eU, 0x3d9b771cbdbc0ec8U,
  0x3c3f1e393e30be7eU, 0xbd95baff3ce1bdc1U, 0xbce60a9d3e683201U, 0xbe1a14d23e9dcda7U,
  0x3e2db6f23db36010U, 0xbdf321483c3462e4U, 0x3a817d0d3e16f02bU, 0xbca99b4b3d068060U,
  0xbd91c2903dc358eeU, 0x3c5b235bbc9b7c31U, 0x3e82d3cc3e7ec47eU, 0xbd8354553c85316bU,
  0x3e05f5c03da39e5cU, 0x3cc97d0d3e526138U, 0xbe82c9983d1288d0U, 0x3e10b6a83e4a58cbU,
  0xbe55ddb1bdb80ff0U, 0xbe31a506bdc1dae0U, 0x3d34e5553ddb8a6cU, 0x3d36818a3e262149U,
  0x3e5df1313e4bff10U, 0xbdccc8c73e36bf25U, 0xbd8e884ebce2297dU, 0xbd68ee81bdbfbb83U,
  0xbd8d07033db39c9fU, 0x3de5873fbe1ebb05U, 0xbde0d6c03e7396e2U, 0xbd809ec53ea7a2eaU,
  0xbe5951753dbb5ca3U, 0x3de4acddbe428a2bU, 0x3df20324be0342bcU, 0xbd0f41febcfed44dU,
  0xbbb100663e67723eU, 0xbd3ff626bde243e7U, 0xbd91e3a73e817c55U, 0x3e1f44fa3e4e2218U,
  0x3ceda014bccb1060U, 0x3e4dadd13cb0cef6U, 0xbc86b428be265caeU, 0xbdc93c3a3dc2e099U,
  0xbc7d482c3dc1d5fdU, 0xbdc374913d901d7fU, 0x3e16a03a3e58cfe9U, 0xbcb65fe43e29a418U,
  0x3d526b113e43289fU, 0xbd217331bd2c34d1U, 0xba604a18bd9a2193U, 0xbd51027abe2b55e9U,
  0x3d4b17f8bd8c228bU, 0x3c0beafb3dbc475cU, 0x3e0c3b56bbba993fU, 0xbe0cdbf9be65153cU,
  0x3e1e63ab3d984efaU, 0xbe340a3a3d068240U, 0xbe356daa3dd0ba10U, 0xbe6262c6be0ddf8aU,
  0x3e025e093d3ccebcU, 0x3be5c0b6be48789bU, 0xbe585fcc3d0ecec2U, 0x3c8ba868bd9be31cU,
  0xbd9f00853e3b4deeU, 0xbdec4a2cbdcb9450U, 0x3c49c32abd9b8093U, 0xbe6b2286bd49b960U,
  0xbe864456be1f7333U, 0x3e5e0b223be090d3U, 0xbe3498a83dda038bU, 0xbe7a3f03be34db47U,
  0x3d8f9d453a6e396cU, 0xbe0962ea3e2ee2baU, 0xbe759445be061f71U, 0x3e103f433db90446U,
  0x3d837ea8be2fa80bU, 0x3caba1a8be15f592U, 0x3e024006be571334U, 0x3d1a31a4be5cccfcU,
  0xbe10ba3ebca62471U, 0x3dca24b03e14abe2U, 0xbd8f4e10be469d5cU, 0xbe08029a3db73652U,
  0x3e534359be0ae414U, 0xbc9a6bdf3e85faa8U, 0xbd51f603be2dadd4U, 0x3db35a763b05353cU,
  0xbda93db83d8efedaU, 0x3e6a81593cbc1d5dU, 0x3e53f0c63db5b5d1U, 0x3dc60343be18e685U,
  0x3ea8025abe2aaddeU, 0x3e288fbf3de3a470U, 0xbcb60c76be849b70U, 0x3e771ee5bd4a49d1U,
  0xbda7b818bab91dacU, 0x3ccb6ddfbe64b1a2U, 0x3dc83a3dbcd88eefU, 0x3e1aebb33c8b594eU,
  0xbd4690cf3d9a7faeU, 0x3dc88184bd3a926dU, 0x3bb0b390be8b6549U, 0x3d8a2d013da3edf9U,
  0x3e2760c13e41c51bU, 0xbcea4cf73d5f6d50U, 0xbce0f2843e0eda38U, 0xbd72861bbd74c1f0U,
  0x3e483416bda8ce26U, 0x3d898b6b3df03febU, 0x3a0861bdbe106fbdU, 0x3e700b9bbdc72770U,
  0xbe09be543d8603b7U, 0x3e0370dbbdf5081dU, 0x3e871d4cbc8d501fU, 0x3deabee6bd49a1dfU,
  0x3dfc1cd0bdb9705cU, 0x3dc87d1bbdcf7ee6U, 0xbded83ebbe695076U, 0x3e701a51bd92d296U,
  0x3dc41b953e0ec6d8U, 0x3e35a139be05fa36U, 0x3e8f606f3df9944aU, 0xbe285db53e193dfdU,
  0x3e50fcbb3dd21a17U, 0x3e37ad513d14fdb8U, 0x3d883a9fbe4e603fU, 0x3d79a1a2bdf453cdU,
  0xbcc0f8b0be35b151U, 0xbd99594a3dc4c481U, 0xbd30f4453e39cf73U, 0xbe19a3e13e39bb3bU,
  0xbd38a1db3c90c5c0U, 0xbc60358ebe0275f7U, 0xbdc831eebe8ff2a5U, 0xbdbbccb9bd1b4458U,
  0x3d41487fbda125ceU, 0x3df5f744be45b6aeU, 0x3d48009ebda9ab03U, 0x3d005be73dd3f5b2U,
  0x3e813d1d3e3a2aaeU, 0x3e01ad873d9771dbU, 0xbe13a067be931685U, 0x3e8d372c3e18782cU,
  0xbe43b8fd3e5a9356U, 0x3d950ab83d36abd4U, 0x3e3de8293e4b76a6U, 0xbdf68e893d1d1d73U,
  0x3e601a883bbafdf8U, 0x3dffa9d43e00c20fU, 0xbe4491bdbd0da964U, 0x3dc830f63af6fa0eU,
  0x3cb2947ebd37acf2U, 0x3d499653bbd68508U, 0x3dbfe27a3d74e33aU, 0xbdaeec6fbd644c99U,
  0xbd679604bd6d7d79U, 0x3e1c8581be20cf8cU, 0x3dd8e90dbd3e28a2U, 0x3e3c8cb8be272c39U,
  0x3e11b03d3e12bbdfU, 0xbe37ddbabe3faac0U, 0x3dc685e73ddf18b0U, 0x3e3387f03dc6e740U,
  0xbe1321dabd802ab5U, 0xbd8cb475bde8c45eU, 0x3d24a09ebdea6577U, 0xbdec4869bdc5b04aU,
  0xbce69b43bdcb7fe8U, 0x3cffdea13b075f5bU, 0x3d5558dbbe10008dU, 0xbde58f4bbd6c4634U,
  0xbc12ed883e4e624dU, 0x3e3d55ff3decc6aeU, 0xbda270713e3e9270U, 0xbe23adc1bc9521e7U,
  0x3e0432e1bde9483aU, 0xbe27cc65be009956U, 0xbcb78faf3d37eafbU, 0x3e1bc0d0bd1aefb6U,
  0x3e3028723e0286cfU, 0x3b21f5a63d8aadd3U, 0x3daaf4ce3e799abaU, 0xbd0e273f3dfa2affU,
  0x3e1fb51dbe13e71bU, 0x3dc985cabce66a40U, 0x3dd90e133e48878dU, 0x3e2a9e17bdf77732U,
  0xbde2d7223d99cb7dU, 0x3e3f3ee6be2daf41U, 0xbd89d01f3e9ee0d0U, 0x3d1d12823d8531f5U,
  0xbe0aadc83e01b72aU, 0x3e24031abd025985U, 0xbdb42b213d48d873U, 0xbd602961bc27f991U,
  0xbd4d041bbddf28daU, 0xbdb920eb3d62d9a6U, 0xbd12bdb03ede239dU, 0xbdccf62b3ea36370U,
  0x3bc1dfb83e094915U, 0x3dbcca02bd6fd32fU, 0xbe156e073d08d1f1U, 0x3e53eb4ebd151430U,
  0xbdad770e3e7d2285U, 0x3e293e59bd900913U, 0x3e75c41c3d2cb720U, 0xbe5bcc273e9b5ea7U,
  0x3ce3bbbfbd5eb8d5U, 0x3e1e2ecf3d5ac7ceU, 0xbe84e2343d09f81cU, 0x3cd3e8e13e0b0bfeU,
  0xbe4b2810be01c5c8U, 0xbe097c50bd712655U, 0xbd132e283ecb493aU, 0x3d8cce5f3e8081f7U,
  0x39dd9024bd941e8cU, 0x3e21c288bcbe7371U, 0xbdc3d7d3be0b23ffU, 0x3de0a8613e17781eU,
  0xbd65b985bdc58c4cU, 0xbe2fc73ebdc87e07U, 0x3e9c86f53ecd1566U, 0x3dbb6ac53d6844f2U,
  0x3ca7d4f83d1310c2U, 0xbda70b20bc544123U, 0xbd031140bd722a80U, 0xbcd776343e10c016U,
  0xbdd0c17d3e595534U, 0xbdbaac3f3e02d197U, 0xbd3966a43e3d328aU, 0xbdf72b2c3e1d627eU,
  0x3c10ae033e470ad6U, 0x3d80f25d3e4922e1U, 0xbe2055423be66ca4U, 0xbd0fd1b53ce49ef9U,
  0xbe10dee7bd2dac01U, 0x3e136641bb83b08bU, 0x3e8b3f10be0e3196U, 0xbd77e8d4be2251f6U,
  0xba986d77bd2ab8f9U, 0xbdeb7a253e403d6aU, 0xbe4bbfe63c40a47fU, 0xbe2fc8c43d9c788dU,
  0xbdff9a1d3e3e1c40U, 0x3e40d098be0156a3U, 0xbd7bcad73ecca030U, 0x3d7bd4d43ea1eaebU,
  0x3d78e0b33cec0962U, 0xbd5b65183cb9ac53U, 0x3c0ce8c5bd9e9e8cU, 0xbdda325dbcf640f7U,
  0xbe3061783e3723e1U, 0xbdb533be3e27505bU, 0x3d9822cc3e06af38U, 0xbd95e3fabdc64b48U,
  0x3db6b06e3e5b7eb9U, 0xbe4c25153cba1e14U, 0xbe504465bdd55a4aU, 0x3e4956323c149199U,
  0xbdee75103c9626afU, 0x3d16ac74bdd15c66U, 0x3e8ed2ae3e9e6911U, 0xbe3b2fd0bd1e9a9aU,
  0x3e4a29a9bcc9268eU, 0xba96d1dcbc21c27bU, 0xbda39f11bda98e34U, 0x3d7828d2bde572bcU,
  0x3e5911a93d072bf3U, 0xbcd186ef3dcd009bU, 0x3dc2e8f3bd11d65cU, 0xbe153876be2c2e75U,
  0x3e62063d3d8e1d22U, 0xbe351a373de3dcf3U, 0xbc5d274ebca08e2eU, 0xbe099c523db55e88U,
  0x3e16014b3d81fef2U, 0xbdc24fa0be265ff3U, 0xbbcbbd5e3ec93d52U, 0x3bb6b2413e90b114U,
  0xbd429f98be14ac5aU, 0xbd775969bd85bff6U, 0x3e0882dab8ce2ddaU, 0xbd084581be959249U,
  0x3dc7fdaabe3c78eaU, 0x3e5363893e453a66U, 0x3e8788263e9405bfU, 0xbd95b41f3e254740U,
  0xbe48ff053dba6e18U, 0x3e4931e3bda3cce6U, 0x3e48ea43bdc09012U, 0xbd4418003d02544eU,
  0xbc4dab673e27aed6U, 0x3cd536663cc5705fU, 0xbe73dc57be6093e6U, 0x3d37b473be1163f3U,
  0xbcb2830d3e24180aU, 0x3dd4fc62bd977052U, 0x3e4a0592be401d1bU, 0x3aeb124d3d073c9eU,
  0xbd29c5ecbe48af20U, 0x3d0df01f3d62e66aU, 0xbe9dba3fbe0a3031U, 0x3e8072a1be9062a4U,
  0x3e15662a3b0a7da6U, 0x3dcd6204be436a6cU, 0x3e0843c33e21eb0aU, 0xbd9ecb493e6202e4U,
  0xbcfc2d563e25f3cbU, 0x3d84b7533e2cedaaU, 0xbdc8e583bdc697a3U, 0xbd9e0c10be08bf41U,
  0xbe1d4ca2be03f4ebU, 0x3dccc403bce77e03U, 0x3e69a949bd990d59U, 0xbe4edc653e523418U,
  0x3e0e411f3dd346d6U, 0xbe2344c2be155bb0U, 0x3e8cc4f73ea62d58U, 0xbc0892303ea451afU,
  0xbde438293e053d09U, 0x3e064941bdcb32d8U, 0x3e0b1aa4bdfcec01U, 0x3e4a5bdc3dadeb76U,
  0xbe41e4613c8997a9U, 0x39170a8ebe3d3071U, 0x3e7323bf3df5d23cU, 0x3c075c4d3e5849efU,
  0xbd08adec3e4baeb7U, 0x3d2741903e5598cdU, 0xbc711ce9bd7aea49U, 0xbdcb17dc3cafc099U,
  0xbe66c73fbd8ed35fU, 0x3e223ab4bdcb2321U, 0x3e3df4ba3e6ebcedU, 0xbe0660993e949e0eU,
  0x3d8f1c15bdd05f44U, 0x3e2742363cbbf3ffU, 0xbdf9c7093e5bff8cU, 0x3db251723d5fb953U,
  0xbceb90f43e40ea22U, 0x3e05fa3c3e1f3317U, 0xbe60222fbe2c771fU, 0x3e14c037be075eb6U,
  0x3df8cc9c3e45e87cU, 0x3e33ba3cbd5c4da9U, 0x3e9b036dbbdaba12U, 0xbe096b913d025651U,
  0xbda005dc3cedfd98U, 0x3d3307583c914450U, 0x3d3411a93dc48606U, 0x3d6fac56be4e7229U,
  0x3daf342fbb9721c1U, 0xbce3b72f3d91cdf0U, 0x3eabbc24bd4d5b69U, 0xbdccce75bde99c9aU,
  0x3d3e4b9f3c32c117U, 0xbe562364be14dc8fU, 0xbc8d0b533d888a38U, 0xbd87b631bd99db4dU,
  0x3dfd7dc5bc8c3627U, 0xbe4844283d995f1eU, 0xbd0902bebc2d701fU, 0x3d45adb33de440e3U,
  0x3df7beea3e5ee948U, 0xbd8808ba3e5d1cb2U, 0xbcb376363e87edcfU, 0xbdfa223c3e16d203U,
  0x3de243653e1d6372U, 0xbe26e8ef3d66c558U, 0xbe431b7ebe1c4bb6U, 0x3e4d1da7bd43251fU,
  0xbe3e4832be013581U, 0xbd8aa43bbe2d5a30U, 0x3e384bbf3e8da9acU, 0x3e29e7d83eafc2faU,
  0x3e71900f3d69a725U, 0x3e26852e3dd49125U, 0xbe46ee3c3e51d293U, 0x3e0db4ad3e31a8a6U,
  0x3d1c32673d3740ebU, 0xbd70f6b4bdd3b22cU, 0x3e46e61d3ec546f0U, 0xbcab4ae53bb221cbU,
  0xbd8cfe713e14565fU, 0xbdabb7f13e48fdeaU, 0x3d60bed83e5fe48dU, 0x3e614abdbde15afdU,
  0x3e2cf6c6be4899d9U, 0xbdd373ff3e3b7ef0U, 0xbe56f8a4bc916396U, 0x3c35f6cabe8b231cU,
  0xbcfef643bda40d8dU, 0x3e064cb2be018940U, 0x3e7f7aaa3e5b8925U, 0xbd8111243d38d638U,
  0x3e1b9ea03dffb59bU, 0x3ce5b4b03d600fc5U, 0xbe2aa264beac2983U, 0x3e845c40bdc11131U,
  0xbe1e7008bd8dfd05U, 0x3d08a083bcba027aU, 0x3db3e1f23e2fea70U, 0xbca9bf693c1c50f4U,
  0x3daeb865be1ac9cbU, 0x3dc98d67bdd81167U, 0x3ccbea8bbe527899U, 0x3e76a0b2be927db7U,
  0x3d55e6c03be0f8c7U, 0x3e6a004fbc02dc2fU, 0x3de70f4f3c9ebdaaU, 0xbe17e337bca191e8U,
  0xbdca67a0bd89dbc9U, 0xbe3221efbda3e28dU, 0xbe416784bdd1e22dU, 0xbc2e753abe8a3b11U,
  0xbde121663e231333U, 0x3e1bd0a83dc822eaU, 0xbd0a1000be392ed9U, 0xbcfca38b3d9329f6U,
  0x3e2a287fbe02a97fU, 0x3e39fbfd3d2317f0U, 0xbe66395fbe0032abU, 0x3e057a4bbd5a931aU,
  0xbe10485c3cac644bU, 0xbdb943ec3e036a7bU, 0x3de4ff463e4f1ccfU, 0xbdab08e83e51c4ceU,
  0x3e8e339dbdad189dU, 0x3e3dacfdbdfc7fa9U, 0xbea2c1f3bdf5b277U, 0xbc63c71fbe45940bU,
  0x3cd720113e256584U, 0xbba183493d5d6d47U, 0xbd163f4a3da1d2f2U, 0xbd584f04bdd07370U,
  0x3e437fafbe18fc03U, 0x3c873bf83cc8932bU, 0x3e22f41abe3c6d25U, 0xbdc4ca7ebe00e677U,
  0x3e4500cdbe0ebf74U, 0xbdbac512bdd2513cU, 0xbd866882be16e7cfU, 0x3e02aaec3d9e3490U,
  0x3e679d4f3d0cdae0U, 0x3e13344c3d521099U, 0xbcf6f58abe8a57b1U, 0xbd7fb968be2903f0U,
  0xbdd018d23e105500U, 0x3c3e175fbd556d6bU, 0x3e79d1f23dc153e3U, 0xbc90e34b3d190335U,
  0xbcf77107be1d3ea5U, 0x3d86f2513df49da1U, 0xbd979863be5e1788U, 0xbcef38a0bb808297U,
  0x3e4f21f23dfccc58U, 0x3e18c570be1297dbU, 0xbd9a4011ba088a89U, 0x3e227abbbd4a19c3U,
  0x3e2223d1b8b8c46bU, 0xbbc889663e561b90U, 0x3d8770dcbd1e8e63U, 0x3e0ba507be3945fcU,
  0x3c8e5559bdba6016U, 0x3d42eea9bc5b8f85U, 0x3ea4ea88bddec481U, 0xbcb8c95fbe2039e9U,
  0x3ce569c1be0b06adU, 0x3d23ef90bdd91d10U, 0xbd93eb1bbe80375bU, 0xbd70aac8be46576eU,
  0xbdd31f7c3c805b3fU, 0x3e307c8cbd6a3338U, 0xbd875059bdb7a6f9U, 0x3e1b2b453cfc12a7U,
  0x3e10bf74be24083aU, 0x3dc40a2b3e5a39c6U, 0x3d9ddb87be960cd4U, 0x3e7237743c83362dU,
  0x3dc377e8bd31f1fbU, 0x3d275bcbbc3f8eb4U, 0x3d7ab354be4de458U, 0x3c9ea0a2be462c5aU,
  0xbdadf0523c3baefaU, 0xbc676551bdb8ac3aU, 0x3e1e9e453e2312e8U, 0x3d3a5dd53cc00b16U,
  0xbda3e7bc3ddb51d7U, 0xbe27578d3e0df732U, 0xbd0768fe3e45d9e9U, 0x3e3aec483d10c85aU,
  0x3da3f7c53cf0a859U, 0xbe0fee873e0d14d4U, 0x3d522a83be04be66U, 0xbddc53f4be4a878aU,
  0x3e3c0e8a3d76d5c0U, 0x3d89a88d3d9f9f48U, 0xbe1131a43cfc2f22U, 0xbcf39a363ceecfc6U,
  0x3d379ee9bc8ed578U, 0xbdfac7bcbd6c86f8U, 0xbe143b21bd161d53U, 0xbd9ba1a0be46e05aU,
  0xbdbb0eb0bbb8d058U, 0x3dedb0243d9b00f3U, 0x3d392c0d3dfb4929U, 0xbda7ef403d9ed350U,
  0x3e3be14dbda48afeU, 0xbda4165f3e14b3c6U, 0xbe070030be6ff89bU, 0x3e82536abd64dac3U,
  0xbe38f7bd3e363807U, 0xbd36ea76bb08ace7U, 0x3ced07663d8c7cd5U, 0x3dc105aa3dbc81afU,
  0x3e7008ccbdffb3ecU, 0xbd964d683dc5516cU, 0xbdae323ebdcd7ac9U, 0x3e40330d3d4e4552U,
  0xbe10452c3e035944U, 0x3e4279d6be32288fU, 0x3d199030be17f9ecU, 0xbda9a1db3e12f82bU,
  0xbd8301ea3e137be9U, 0x3ce0471a3dfdc749U, 0xbe25e1a4be5a27dcU, 0xbd853a40be77b47dU,
  0xbe19d52bbe042e2dU, 0x3e46ffd33d90e5fbU, 0x3e0b60313e567252U, 0xbdc76a56bdcca603U,
  0x3e5f0e86be3e4b8cU, 0x3e2b807f3ae7cccaU, 0xbe8a875abde45363U, 0x3e83fd84be1093e6U,
  0x3d8ad886bd522be0U, 0x3e32248ebd9a7db5U, 0xbc50cfa63c28049bU, 0x3e08e20d3de4b892U,
  0x3e053823bdc26ca5U, 0xbe1d1e6f3e462e88U, 0xbe233e09be6dcf6aU, 0x3d07b199be2cb55eU,
  0xbe07b43fbe069297U, 0x3e897ca43c3fe522U, 0xbd71785abe07e43dU, 0x3e6a9ee43e4f93efU,
  0x3b116620ba2511e0U, 0x3e23f98f3de060d1U, 0xbe4c5ed6be1dbafaU, 0xbcef6b97be0d0478U,
  0x3d6c0ec6bd80325dU, 0xbd454e19be0af4fbU, 0x3e05fb80bd66480fU, 0xbdd594553d148584U,
  0x3e93f99abda1b116U, 0xbe147357be1ba76fU, 0xbe4a3f0bbe3cf8ddU, 0xbbad0e7cbe6cf199U,
  0x3dac3036bcd1222cU, 0xbd889518bca03b0bU, 0x3d545b063aaa0a4aU, 0x3e2ed849be1d642cU,
  0x3e808417be5a9529U, 0x3da4b896bca6b6e1U, 0x3d21fbbbbea6a473U, 0x3dbaa20bbe94131fU,
  0x3e3edbc13e0e85faU, 0x3d887ab8bd5d6283U, 0xbd1e90433d1a3a21U, 0xbdd142273e35025dU,
  0x3e935625be2095f1U, 0x3e169d4d3dde6281U, 0x3dc547cebe20bfe4U, 0x3dbebd62bd90d2d7U,
  0xbd53f893bd027a16U, 0x3c8a9e963df13d44U, 0x3d38cfdb3e1fc918U, 0x3e37c3b8bd26b1a5U,
  0xbd61dc7bbc8eac54U, 0xbd04e068bca4070cU, 0xbc12703dbd3f24beU, 0xbcec3800bcb2bba9U,
  0xbc103086bc7d80b4U, 0x3dd0cf33bd7b88dfU, 0x3d1da8bd3cf825afU, 0xbc16ff523d457c4aU,
  0x3a1e43d8bd2adde7U, 0xbc95317cbc85f7daU, 0xbce2e3b53c8fb998U, 0xbb93d76a3cb90d3cU,
  0x3c4a3f713d7b0a84U, 0x3df0bb973d757f33U, 0x3d2d3204bcba52e1U, 0x3d57cec73dc0c468U,
  0xbe8c788f3d5d2200U, 0xbe8bcb31bdd53916U, 0xbe39d5123d1eea08U, 0xbe677906bdd6f3d4U,
  0xbe19842b3d8bb608U, 0xbe112841be971377U, 0x3d156680be6aa9b8U, 0xbe8bbe4b3ddd5684U,
  0x3d325fd8be2f7945U, 0xbe35ac773e696b1eU, 0x3e5d74823e899039U, 0xbcc2e8c03e904395U,
  0xbd0f72883e2499a8U, 0xbe5beaf6be2e39c9U, 0xbe8ff6c2be3c86c2U, 0xbe62050cbb5e6e00U,
  0x3deda3edbe692873U, 0xbe208c703e82a6eaU, 0xbe66f1193dad459eU, 0x3e93e8b63dce4e07U,
  0xbe0e65d73d40ca9eU, 0xbce637dd3e41ae18U, 0xbda54103bdbd606aU, 0x3e2a72aa3e1d7ae5U,
  0x3eb6feb13de55130U, 0xbd41ee443eb504feU, 0xbdccdb4f3c7e997eU, 0x3e37ce953e68cca3U,
  0xbe57372dbe8eaa75U, 0xbeee1e1c3df274a2U, 0xbea75957bdf942a2U, 0x3e7dd7703de0e7d0U,
  0x3e260897be08af22U, 0x3e869f70bd623e29U, 0xbe7376743de43719U, 0x3e029d293e8915d3U,
  0x3ebc007d3e2fcb41U, 0x3ddd8545be6c9b54U, 0xbe0ee1f5be115d76U, 0xbd19f37e3e5f46c2U,
  0x3e8c5b293eab78d6U, 0x3eb999bd3eb2a9bbU, 0xbdc4713abd50faa7U, 0x3e189edd3e8534f0U,
  0xbea1fa27be66837dU, 0xbee459e4bda49493U, 0x3da17a0dbe881e11U, 0x3df8de60bea7cf9fU,
  0x3e892df1be5bdc5cU, 0xbe247be93e7b62b8U, 0x3e28a8a4bdb4efd3U, 0xbd9c72f13eaeaef3U,
  0x3e8f01d4bd23a53eU, 0x3cb5a4e6be57ddf7U, 0xbd943717be2660cdU, 0x3da26c7bbe90937aU,
  0xbe5735cf3e8fdd3bU, 0xbc73bec9bca93bc3U, 0x3e9677463d5bf394U, 0x3b9418e73da1f623U,
  0xbe8c0166be41bf17U, 0xbebd1ab43e725d5bU, 0x3d4232be3e5133f4U, 0x3e18406abe2bb573U,
  0x3eaf6f53bd9b46beU, 0x3e4ac894bd7c5630U, 0x3dd9a2d1bdccfa3fU, 0x3e9a7abc3e9733a5U,
  0x3e8c5c7f3e741387U, 0xbeacccb33e277c61U, 0x3e381e4a3e5b5e05U, 0xbe4bf4a0be6a9ce3U,
  0x3eb355263e2fab70U, 0x3edfa2ee3d7a5ad0U, 0x3e7fdcdbbe526f0fU, 0xbd7dc2ec3e2206fcU,
  0xbe6dba74be88cffbU, 0xbebf89a5be79e7aeU, 0xbe8c18edbc6ad118U, 0xbe90564dbe1d2ab9U,
  0xbb74f66cbd476531U, 0xbe35a94dbdc55898U, 0x3e26c350bcc9a27fU, 0x3cbf9431bc5acf8aU,
  0xbed1ab163dc51d60U, 0x3e3ce73e3e66511bU, 0xbc7791c83e7f7ac3U, 0x3e8a2b3fbe863d12U,
  0xbea53e0dbe0b865fU, 0xbd51c0a3be464f35U, 0xbdcd1f853e937940U, 0x3e1415df3e24aeadU,
  0x3e2fa7883e89a409U, 0x3e88b67a3ea46df1U, 0xbe13b896bea02a24U, 0xbc51dd09bd07ee0cU,
  0x3e1830c2bdafeebeU, 0xbd262c99be5ebe6dU, 0xbe729b543e4940deU, 0x3e18c5913dd559ccU,
  0x3e81aed83e8fed43U, 0xbe2249ad3cfc3611U, 0x3e7a9f3cbd1ed1a4U, 0x3e4693e4bd867409U,
  0x3d85cc373e271c7cU, 0x3e57a21e3eaa3079U, 0x3ea47507bda50322U, 0x3e9786abbe93c915U,
  0xbe5ffe753e283911U, 0xbeab31f2be495f85U, 0xbebb79753dd425afU, 0x3e077cd5be7a46d0U,
  0x3e32343ebe393acfU, 0x3e0ab2c43e11dce0U, 0x3e38d2a1be8e8d11U, 0xbdd01a283dfca98fU,
  0x3da65a01be86d3d7U, 0x3e7069f73ded6777U, 0x3da4cdd83e6402e2U, 0x3e16fbfabdb00fe0U,
  0xbdf6d6c53dee8673U, 0xbda84dc53e23b559U, 0x3de46cbe3d2eeaecU, 0xbc6875ed3e941854U,
  0xbe7c52463d4676c3U, 0x3e5d01ce3dfccd13U, 0x3e8f3423be88c0a2U, 0x3e0c21513e3da5f0U,
  0x3e512b5b3e84c1f7U, 0x3e6a2f293e09de9bU, 0xbe47c0d53bdbebebU, 0xbe49bc9f3e82bb0cU,
  0x3dd05f2fbea93427U, 0x3e8a8037be90645bU, 0xbb01fa7bbe94e64bU, 0x3e6fc699be8b8f4aU,
  0x3d0073473d7443b2U, 0xbd15a7203e83fa60U, 0x3dfd356d3e1dfd35U, 0xbd49a997be393cf1U,
  0xbe9fb9333d7c82c9U, 0x3e1a4e6bbdfa41ceU, 0x3d50af8a3d001bc4U, 0xbe8e8b213e2b80d6U,
  0x3e5a3b70be609841U, 0xbca3be4cbdd3f504U, 0x3e910bb2bd9b4cbbU, 0x3e01ae903da5668fU,
  0xbe1fe9a53e433cb2U, 0xbe3b4ab33dbd4a3aU, 0xbd98e1d9bdf618c3U, 0xbd92b25fbbe6225eU,
  0xbd3bc0593bee1c24U, 0x3edbac7ebe0ccaa4U, 0x3eadb914bda4415aU, 0x3e92b2cebc945e23U,
  0xbdb7ee05bea7b496U, 0xbed137513d9ca4cbU, 0x3da306c2be6a5d3dU, 0x3d5e3643bebe46d4U,
  0xbe235106bc192280U, 0x3e7e91ba3d01b420U, 0x3d3b1448bc206ae0U, 0xbd8ce168be2f9eb9U,
  0x3d839a8cbe9b0162U, 0xbd89e7503e37616aU, 0x3d3c2040be624041U, 0x3ca50680bd9ec0f0U,
  0x3ce6e6a0bde5c974U, 0x3ca414a03e16193aU, 0x3d77e2503c99e0b0U, 0x3d9de44cbd265140U,
  0xbc9c4b103ddf1f20U, 0x3cde2620bd4370d0U, 0xbbfbdac0be984a65U, 0x3d6832e8bd1e7700U,
  0x3c27095cbe818b1aU, 0x3eb48227bcc06b79U, 0x3e853c08be31b845U, 0xbdaece523da9ba80U,
  0xbd3cf6313e9f0796U, 0xbe0c4428be518d6bU, 0xbbbd21fdbe58cfd4U, 0x3ea66460be3e78a8U,
  0xbdbebc0b3e2048d6U, 0x3ee0b26e3c9a29c9U, 0x3e42a7c3be0afa2cU, 0x3e70d268be538ff8U,
  0xbeaada25bcf2b88eU, 0xbe9f63113e82377cU, 0xbd9416523e8f6d95U, 0xbe9684cfbe92fb0fU,
  0x3dcb21a4bc5b5907U, 0x3e83d3d03c4efef3U, 0xbd63b21dbc9c2209U, 0xbe30f870be91b6aaU,
  0xbeaa4be4bca43b37U, 0x3e4faa42be65578fU, 0x3d89237fbe88afdcU, 0xbc24bbb03d0ebd52U,
  0xbd97dd8fbd57e414U, 0xbdc065cbbc67f049U, 0xbe90caf73eb1790cU, 0x3e71236f3e6bed18U,
  0x3ea9c561bdddc578U, 0x3ebe91993e628154U, 0x3d64ec573e8dfbd5U, 0xbe2e2ec83dfe6cd6U,
  0xbe8e5acdbe21d76fU, 0x3da17073bd249053U, 0xbd0831dd3df1f43bU, 0xbe994ded3d4e7d23U,
  0xbe05336fbe831571U, 0x3d9af0aebe1bc6b1U, 0x3e8275933e055b1aU, 0x3e68bb4fbe8c690cU,
  0x3e737f943a756610U, 0xbe9ba183be1f036eU, 0xbe724bb4be52c02aU, 0xbe118d223d8967d6U,
  0x3c7fce7bbe1ae5ebU, 0xbd882aa13c85a9acU, 0x3d6462ff3e8fc9deU, 0x3df99d7c3e6efed4U,
  0x3e03f3eebe5f4933U, 0xbd7faf9d3dea0c8aU, 0x3d33d06fbc886079U, 0x3cbd3b1bbe6d8746U,
  0xbdd1d2d33d823e98U, 0xbe609cd0bdbabee5U, 0x3e987aea3d55b34dU, 0x3dfdc831be2ef9faU,
  0xbe3eed633e1f66d2U, 0x3dbc235cbe16a988U, 0xbe1bc915be7d4f67U, 0xbe3dd22f3e736e28U,
  0x3e8b0ed03df740c5U, 0xbde8492d3df49292U, 0x3de35ba43e87f2e6U, 0x3e90d6e9bd721b17U,
  0x3e893d57be8eec32U, 0x3ea907aebe76bdeaU, 0xbc0ee4763dfcefa7U, 0xbe82294fbe55c853U,
  0x3e0de2d83ea3d818U, 0xbdddc5b43e6b49f5U, 0xbe1b32283d9d088eU, 0x3e14385a3d78cce0U,
  0xbdab2d2fbb4da9fbU, 0xbe0258b7bdc68e75U, 0x3ea95618bcb746aeU, 0xbe4988e53e370867U,
  0xbdb01558be1d49c6U, 0xbca73a653e63c716U, 0xbdc235aa3e82c2f4U, 0xbdff9a56be0246b4U,
  0x3e9d5ae6be3ef686U, 0x3e0bc38e3c89bf53U, 0x39bd05293e5a4cd3U, 0x3eaefbeb3e62cbcdU,
  0x3e64b67f3ea85d37U, 0xbe551973be8b79f3U, 0x3e8dff58bde199a0U, 0x3e1fe36bbdc3c6f5U,
  0xbd87d44abdce9387U, 0x3e8bdfc3bdfe17b6U, 0xbe3a8a6dbe8f1735U, 0x3e014b49be1eae57U,
  0xbdffe5f4bebbe10eU, 0xbe957977bd5e3bc1U, 0x3e1a68313e5db605U, 0x3c7c346fbe9254d8U,
  0x3e7454c6be1b57a4U, 0x3db98a9fbe276a0fU, 0x3e854155bdd37e73U, 0x3e9807b53e2c1859U,
  0x3ea41719bde4ae38U, 0xbe72b5efbea11cb6U, 0xbd369a763e17302bU, 0xbe314c153d977ea6U,
  0xbd16f9eb3e69d904U, 0xbde1271dbd51d6d1U, 0x3e857bc1bdd4b110U, 0x3d5381cc3e4f5a86U,
  0x3c0f9198beb71191U, 0x3cb5ae363d702255U, 0xbe391447be6d8316U, 0xbda01ba3beacfb1eU,
  0xbe81d9303e30f27cU, 0x3c8f195c3dde9b65U, 0xbe8d660fbe781c92U, 0xbda077303be3d6d0U,
  0x3e2c5e1abd94e7f5U, 0x3e824ce03ea56c54U, 0x3cbcf718bd112471U, 0xbddb33f43e9ea8fbU,
  0x3e74bd0abc91b375U, 0x3d193487bd398576U, 0x3e13aa493e849d7dU, 0x3e07a8babe8e4baaU,
  0x3d7126a0be388be5U, 0x3ea7bd113def46a1U, 0xbd23b512bcc85b05U, 0x3e9ead173dd738f8U,
  0x3e85028dbe5d3665U, 0xbe5ea4103e98fa8fU, 0xbe094dfcbe77a7caU, 0x3e38bfdcbe100984U,
  0xbd04fcfbbe2fe3fcU, 0x3e8bb2abbd70375fU, 0x3c441f6f3e14ff6eU, 0xbdb8c3f03e604dadU,
  0xbe6225f5be58a96eU, 0xbd97aa22be3c7ce7U, 0xbea41e4f3e2e8b3bU, 0xbc50a50d3dee5530U,
  0x3e8d32dd3ec07c8cU, 0x3e1b60bdbe679580U, 0xbb806b763e938625U, 0xbe3af8283eb584aeU,
  0xbe95ae32be6d22aeU, 0x3e19d7e23de32d37U, 0xbdab2d4f3cfb45daU, 0x3daa090fbe5e0d96U,
  0x3d0786e8bdcf3689U, 0x3e7730563aed9385U, 0x3e875d2b3ea373d0U, 0x3d9d64cd3d58e422U,
  0xbe84ddeebe940154U, 0xbd023673be12f763U, 0xbd7635c23e8ad152U, 0xbe88c5da3e8a2466U,
  0x3e02b536bdb359e0U, 0xbd23c4853e1a036bU, 0x3e66c588be7945d8U, 0x3e3553aa3e70c149U,
  0x3da3b5b5be5068e2U, 0x3e5449b23dd813e4U, 0x3e25c33e3e1a291eU, 0xbb1af26dbe214b79U,
  0xbe422c61be847f03U, 0x3e51be72be500de5U, 0x3d31970f3d33fd4bU, 0x3dd32362be493683U,
  0x3de261ccbe10b5c3U, 0x3d18106fbbffc994U, 0x3e01468fbde7ece7U, 0xbe8fda593c630065U,
  0xbe7f87a43e95603dU, 0xbe87eb02bdd4c1d4U, 0x3e85ce413ca6a01cU, 0x3d9becd93d81c550U,
  0xbe44048f3dfa2e80U, 0xbe1c57b6bbde8358U, 0x3d4b3f80beb6f1faU, 0xbd61e566be254775U,
  0xbe2b32123e0ef4deU, 0x3cec9ba13dbe0b3fU, 0x3d29c1663d330306U, 0xbd25027ebe2f5827U,
  0xbe990e41bd7122b7U, 0x3e035d9c3e0d7de8U, 0xbdd3c2f1bdd0eeeeU, 0x3e1c773bbe334d78U,
  0xbc594da8bdfefa23U, 0x3ec9ac5b3db31ee2U, 0x3e98dfe2be4e410aU, 0x3e8085793e356c1fU,
  0xb996a4bcbe56994bU, 0xbe17b3fa3e73ecf9U, 0xbd9cc8413d3e9bcaU, 0x3e2fc91bbd38468cU,
  0xbe8d151fbe720180U, 0x3ec432f83e8a948fU, 0x3d869f483e0e4b7bU, 0xbdf08871be1f98beU,
  0x3d924cf8be93c6d1U, 0xbdc737893dcdafa0U, 0xbdaeb764bdf5cc5bU, 0xbe30f2ac3e8b9276U,
  0xbdc798053ea5d9faU, 0x3ea1a443bdbe6127U, 0x3ea319a4be8389f5U, 0x3e8b3ecd3dd6d57eU,
  0xbd2e0f9e3d4a9446U, 0xbe1cc97d3d62018dU, 0xbd00e03d3ddfb0c4U, 0xbe8f94c33e72160fU,
  0xbdeefd513df400faU, 0xbe7e48b9bd6af46eU, 0xbe66ed7c3e841aa4U, 0xbd48e91abe86554cU,
  0x3de0f555be03e4ccU, 0xbe92c5ab3e5c6553U, 0xbe4d8736bc006a66U, 0xbe3eb3dabd6c0edcU,
  0x3cb1d99ebe9d7acfU, 0xbdb50064be667668U, 0xbe7cd574be22e711U, 0x3e3f6961be0a5ee0U,
  0xbd151a40bdc9584eU, 0x3d87da34be760f8fU, 0xbe887ed33e7635eaU, 0xba340e00bcc448b0U,
  0x3e51442abe24c0b7U, 0x3dab96a0be97d774U, 0x3be03b40be1c7d8aU, 0xbe87e5a5be75b712U,
  0xbd9670cabe05964eU, 0xbdf5c4b83e5246beU, 0xbd1feea0bdb31ffcU, 0xbe258e423e178564U,
  0x3e56ab36be6ccebbU, 0x3e510852bdf9abe0U, 0x3dd4779c3e012e3cU, 0xbdebb12cbe0a9530U,
  0xbe210dd23dd9d0bbU, 0xbe2057fdbe8b24deU, 0xbe7151973daec9c4U, 0x3e2389b13e9279dcU,
  0x3d99d1b43e32dddcU, 0x3e8efec83d1d1846U, 0x3e8200cf3b03457fU, 0xbd0e66e4be15be73U,
  0x3dc159fd3aedfe25U, 0x3ecfe0bdbe926ea6U, 0x3e2c3eefbe8834feU, 0xbd8dc54bbd167bb1U,
  0x3e9dbcc03d36cdabU, 0x3df9ca09bdf169d7U, 0x3c5c38a5be8d6e41U, 0xbe0a3f12be27b83cU,
  0xbe511d643da6af1cU, 0x3e324106bcf600d0U, 0x3e32d6363c2561e0U, 0xbd565690be98734dU,
  0xbe48e17dbe5bc866U, 0xbd7733683e441452U, 0x3e0110363dc7c26cU, 0x3dd5f3d0be46bec2U,
  0xbd0f4620bdaada3eU, 0x3e5405f63dd6db38U, 0x3e11d12cbddfd05cU, 0xbe642f603e72d052U,
  0x3e6a0bbebe93106eU, 0x3d39e6383dd6fb4cU, 0xbe7a6564bcfb71b0U, 0xbe89f50fbe09b292U,
  0xbe89d07f3e4a1ad4U, 0x3daf6737be74c9d7U, 0xbe801b8abd8824ddU, 0x3e82fa34be646eadU,
  0x3df52af03e5c5ef3U, 0x3ec9a96abd901fb1U, 0x3e9ac6bdbdbae2e5U, 0xbe6a4cc13e00b637U,
  0xbe8bfd55be8d11daU, 0x3dd4a85a3e2cfa0fU, 0xbe6ea5ae3e9339f5U, 0xbe0433463deca0baU,
  0xbdbc34c2bc93c84fU, 0x3e7742ab3e7747c8U, 0x3d98d75abe4ea561U, 0x3d98074d3e01cefcU,
  0xbe26e8e23d76f8b0U, 0x3e28823c3e30dbccU, 0xbe152c10bdea0b0eU, 0xbc7da2c0bda286baU,
  0xbd2b1158bd702d08U, 0xbe01f762be68f090U, 0xbcffddd0be564e86U, 0x3ddc85803e256f8cU,
  0x3dbe9014be0cac44U, 0xbe35024d3e7e1c36U, 0x3d2f1ad0be824ab9U, 0x3e1cfcd2be0080c8U,
  0xbd56a6f03e1651daU, 0x3e5800ea3d5605b8U, 0xbe203a4cbe94a3adU, 0x3e2948e8be888aa4U,
  0xbe75b607bdce0267U, 0xbe57fc693ea9f3f2U, 0x3e1969973e8b044dU, 0xbe55379fbe8023d2U,
  0xbd41dd70be4c6adeU, 0x3d836cf8be4f6db8U, 0x3e369bb73e2ed88eU, 0x3e87e572be0ae799U,
  0xbe364fd7bdcd5ee7U, 0xbeba552abdcdbf0eU, 0x3e2f7460bde6bcbaU, 0x3e7445cbbd97130cU,
  0xbba92768be303f8fU, 0xbd2da286bc5f699eU, 0x3e69afd03d9ab071U, 0x3e71da893e256c75U,
  0x3e40466abde13889U, 0xbe8622093e5b1f55U, 0x3e7f81103c17fe9bU, 0xbdc418ed3dcf8382U,
  0xbecd722bbe169c64U, 0x3e82e699be12001bU, 0xbe658a3f3e28a8f9U, 0xbe5d3ecd3d03f581U,
  0xbe958077be44f74fU, 0xbd530a33be95a72dU, 0x3d7d68673e3a63e2U, 0x3e72ded23e590651U,
  0x3e3819edbe1b0762U, 0xbc17c5afbe72cb53U, 0x3d996d25be221648U, 0x3cf58dc23d2e70f3U,
  0xbce933bf00000000U, 0xbc1fcfb2bd0ba36eU, 0x3d0257a3bcfb6de3U, 0x3cfd4329bd2a9c89U,
  0xbcbce0b5bcf94fa7U, 0xbccfd8fa00000000U, 0xbc2f20c23d2653a5U, 0xbd0d1a943c334e79U,
  0xbd135857bccbbd3eU, 0x3d1c3fa43cf88e3dU, 0xbc2cfe173d45b0bcU, 0x3d49f7683d68c017U,
  0xbb37de4eU, 0xbc4270e3U, 0x3d5e9dd4U, 0x3d1a89333cf0251aU,
  0xbe97bf263e2bb62cU, 0xbedc88a1bf02312eU, 0x3e46d1d0bf0ad3f9U, 0x3e4163edbe10f0c8U,
  0xbf045e513e6eb01bU, 0xbec5488a3e518080U, 0x3ebb8f403eabef9dU, 0xbe121ca93eb538b0U,
  0xbe2a1306beeff1b6U, 0x3eb8dba83eb7e30fU, 0xbecf474a3ea26f0cU, 0x3e976af73efb8374U,
  0xbd96e9343eaf4741U, 0xbeb460ebbe9c406eU, 0xbeb4a0003e9e919fU, 0x3e9e6c753e8d239dU,
  0x3cfd0b95U,
};


ai_handle g_network_weights_table[1 + 2] = {
  AI_HANDLE_PTR(AI_MAGIC_MARKER),
  AI_HANDLE_PTR(s_network_weights_array_u64),
  AI_HANDLE_PTR(AI_MAGIC_MARKER),
};

